memory_initialization_radix=2;
memory_initialization_vector=
00000000000000001111111101110011,
00000000000000000000000000000000,
00000000101011011111111110011110,
11111110011001001111111110010111,
11111111100101111111111011111010,
00000001000001010000000011100001,
11111110101011011111111011111110,
00000001010100001111111111010010,
11111111001011010000000101111111,
11111111100011000000000001001100,
00000001111001101111111111110111,
00000001001000000000000011001110,
00000001001000111111111110011000,
00000001011010000000000001110011,
00000000000000000000000011110000,
00000000000000000000000000000000,
00000000000000001111111111101001,
00000000000000000000000000000000,
00000000010110001111111011100111,
11111111111001110000000100010000,
11111110101101010000000100010011,
11111110110111001111111010100110,
00000000010000111111111101110110,
11111110011110100000000000111001,
11111111001001101111111100100110,
11111111100011101111111011111000,
11111111010101101111111101011111,
00000000100110011111111011110010,
00000000101110010000000000110110,
00000000000110001111111100010000,
00000000000000000000000001010100,
00000000000000000000000000000000,
00000000000000001111111110101101,
00000000000000000000000000000000,
00000001001101011111111110100000,
11111111011000110000000010101110,
00000000111101001111111111111001,
11111111101101000000000110110011,
11111110100110010000000000100010,
00000001010011110000000100111111,
00000000110100000000000001110001,
11111111100111001111111100101101,
00000001000110010000000100110000,
11111111011111011111111111011110,
11111111110101101111111100001001,
00000001000000110000000001010010,
00000000000000001111111101011101,
00000000000000000000000000000000,
00000000000000001111111011100000,
00000000000000000000000000000000,
00000000111010011111111011101001,
00000010000101000000000110000110,
00000001010010000000000111011110,
00000010010100000000001001100001,
00000001001011110000000101111110,
00000001101101110000000101000010,
11111111011011000000000001110111,
00000000010100011111111010111101,
11111110001000011111111110010101,
11111110001011111111110110110001,
11111110001111000000000000111010,
11111111110110111111111000011100,
00000000000000001111111110010001,
00000000000000000000000000000000,
00000000000000001111111101100000,
00000000000000000000000000000000,
00000000010001100000000000001001,
11111111111010110000000011101011,
11111111010111110000000010111010,
00000001000000101111111011101100,
00000000011110110000000010100101,
11111111111101111111111011100000,
00000001001100110000000010001110,
00000000010100010000000100100101,
00000000110101100000000001100000,
00000001011001000000000010101101,
11111111001110101111111110111011,
00000000011100100000000100111001,
00000000000000000000000011001101,
00000000000000000000000000000000,
00000000000000000000000000110101,
00000000000000000000000000000000,
11111111000001001111111110010111,
00000000011110110000000000101010,
11111111001011000000000011110101,
00000000001111111111111110000111,
00000001000011001111111110110100,
11111111011111101111111100101010,
11111110111100011111111100110000,
11111111000000010000000000101010,
11111111000010101111111011000101,
00000000010111001111111100010010,
00000000111000100000000011100101,
00000000101010111111111111110100,
00000000000000000000000101001010,
00000000000000000000000000000000,
00000000000000001111111110011110,
00000000000000000000000000000000,
11111110111111001111111110100101,
00000001001100011111111100010101,
00000000110110100000000000111110,
00000001011011100000000011011101,
11111111010101010000000010111010,
00000000110100111111111110000101,
00000000011010001111111110100001,
00000000101000011111111101000100,
11111110111111100000000010101111,
00000000001010101111111110000111,
00000000111101100000000010000001,
11111111101110101111111110110010,
00000000000000001111111110011101,
00000000000000000000000000000000,
00000000000000000000000000110010,
00000000000000000000000000000000,
00000001001000000000000100101011,
11111111010111011111111011110001,
00000001011101101111111110001110,
00000000011011110000000000010100,
11111111010000011111111010010111,
00000001000001110000000011010001,
11111110011000101111111110110110,
00000001010100111111111111010111,
11111110111100000000000011000100,
00000000000011101111111111000101,
11111111110101110000000010001101,
00000000111100010000000010100111,
00000000000000000000000001100110,
00000000000000000000000000000000,
00000000000000001111111101000001,
00000000000000000000000000000000,
11111110111001010000000001000010,
11111110110111101111111010010010,
11111111110011011111111110100001,
11111110100010000000000000010001,
00000000101011001111111101000111,
00000000111111100000000010010101,
00000000000001000000000011001100,
00000001100000001111111110110110,
00000001101111110000000111101111,
00000000110011000000000110101110,
00000010010111000000000110010111,
00000000100000100000000110010001,
00000000000000000000000010011101,
00000000000000000000000000000000,
00000000000000001111111110000000,
00000000000000000000000000000000,
00000001100010110000000110011010,
00000000111000100000000110111101,
00000000000100000000000101111111,
00000000010001110000000011011001,
00000001100011001111111111001011,
11111111000111101111111100010101,
00000000100000100000000001001110,
11111111010010101111111101000001,
11111110100111001111111110110010,
11111111001110001111111110000111,
11111111010000111111111101011100,
11111110101111001111111111001111,
00000000000000001111111110000010,
00000000000000000000000000000000,
00000000000000000000000000010101,
00000000000000000000000000000000,
00000000001010101111111110111011,
00000000011000111111111111011111,
11111111011011100000000000100111,
00000000010100011111111111000011,
11111111011101101111111101111010,
11111111110101001111111100001100,
00000000010010000000000100000101,
00000000011100101111111010110001,
00000001010000111111111111100101,
11111111011000110000000011011010,
00000000111101110000000010000100,
11111111011101000000000000111101,
00000000000000001111111100000001,
00000000000000000000000000000000,
00000000000000001111111100101010,
00000000000000000000000000000000,
00000000011110000000000010111111,
11111110101100101111111100110110,
11111111010101001111111011001000,
00000000000000010000000001000110,
00000000110011111111111111111100,
11111111000100110000000010110011,
00000000111111100000000000110001,
11111111001100110000000000111010,
11111111101010100000000010101000,
11111111111001101111111110111101,
11111111001110101111111111000110,
11111110111010100000000000001111,
00000000000000001111111101001101,
00000000000000000000000000000000,
00000000000000001111111111111111,
00000000000000000000000000000000,
00000000100100100000000011011011,
11111111110011001111111110011101,
11111111000110010000000001011011,
11111111111111101111111100001000,
11111111100100111111111011111111,
00000000110111100000000001111001,
11111111001011010000000000001111,
00000000000111000000000001111111,
00000000100000001111111110001110,
11111111111001000000000011011100,
11111111010010010000000011000011,
00000000000001101111111101111001,
00000000000000000000000010100110,
00000000000000000000000000000000,
00000000000000001111111101110000,
00000000000000000000000000000000,
11111111011111101111111101000101,
00000001100011111111111101100000,
00000000101000100000000101101110,
00000000111010100000000001111110,
00000000100111101111111111101111,
11111111011100000000000010110001,
11111111110011011111111110010101,
11111110101111010000000100100001,
11111111010011001111111110101010,
11111111011101011111111110000110,
11111111111001001111111011011101,
11111111001100001111111110111110,
00000000000000000000000001100100,
00000000000000000000000000000000,
00000000000000001111111101010110,
00000000000000000000000000000000,
00000000101111110000000100111001,
00000001000110010000000100110111,
00000001001101110000000011010010,
00000001001111100000000000010110,
00000000111100111111111110101101,
11111111101010110000000000101110,
11111111100101100000000000000111,
11111110101101000000000010100100,
00000000001100010000000001100000,
00000000100001100000000001000000,
11111111011101100000000000000110,
00000000100000101111111110100110,
00000000000000000000000000101100,
00000000000000000000000000000000,
00000000000000000000000010010111,
00000000000000000000000000000000,
11111111100100001111111111111000,
11111110110101111111111011111100,
11111111001110111111111101010111,
11111110101111001111111110110001,
11111111100010001111111111010100,
11111111110111111111111110000010,
00000000101111010000000011101001,
00000000100010011111111101001101,
11111111110011100000000001010000,
00000000111110001111111101011100,
00000001001010101111111101000001,
11111111111011000000000000011101,
00000000000000000000000010101101,
00000000000000000000000000000000,
00000000000000001111111010101001,
00000000000000000000000000000000,
11111110011000001111111100100101,
11111110101111011111111001110110,
00000000100011111111111011011000,
11111111001100111111111111011100,
11111111111001101111111010101110,
00000000110011000000000100010000,
00000000011010100000000000110111,
11111111110110111111111111100010,
00000001000011100000000011000011,
00000000000100100000000110011101,
00000000110010000000000100110000,
00000001100010010000000001110000,
00000000000000000000000011001101,
00000000000000000000000000000000,
00000000000000000000000000011111,
00000000000000000000000000000000,
00000000010110110000000100001000,
11111110100110111111111011011111,
11111111111000111111111111010000,
11111101111111111111111011101011,
00000001100101011111111100011111,
11111110001011111111111110100010,
00000001001101111111111111101001,
11111111011010100000000101000001,
00000000001110111111111111001010,
00000000000000000000000101110001,
11111111110111001111111111111010,
11111111110111000000000011111001,
00000000000000001111111111001010,
00000000000000000000000000000000,
00000000000000000000000011101100,
00000000000000000000000000000000,
11111111111110000000000010001010,
00000001100000000000000001000000,
00000000100100011111111111110000,
11111111010001010000000010111000,
00000000011110001111111100010100,
11111110101101001111111011001100,
11111110100010001111111011010000,
11111111001000101111111101111101,
11111110100100001111111101100111,
11111111100100100000000001011010,
00000000000010011111111110101100,
00000000101111000000000000000011,
00000000000000001111111111011011,
00000000000000000000000000000000,
00000000000000001111111101000011,
00000000000000000000000000000000,
11111110011101000000000001011111,
00000000100111001111111110010111,
11111110101001110000000100111010,
00000000110010011111111001110101,
00000000000010010000000110111001,
11111110111001011111111011010111,
00000000101111010000000001000010,
00000000001010100000000000011000,
00000000110110000000000000000101,
11111111101111110000000100010011,
11111111110110110000000001101110,
00000000110001110000000100001100,
00000000000000000000000001111001,
00000000000000000000000000000000;
